  EMXI	    AL	    12	    24	    36	    48	    60	    72	    84	    96	   108	   120	   132	   144	   156	   168
-127.5	-117.5	   7.7	  15.0	  18.6	  16.7	  12.5	  14.5	  17.5	  19.2	  16.5	  22.3	  14.6	   6.9	   5.7	   5.6
-117.5	-107.5	   7.7	  15.0	  18.6	  16.7	  12.5	  14.5	  17.5	  19.2	  16.5	  22.3	  14.6	   6.9	   5.7	   5.6
-107.5	 -97.5	   7.7	  15.0	  18.6	  16.7	  12.5	  14.5	  17.5	  19.2	  16.5	  22.3	  14.6	   6.9	   5.7	   5.6
 -97.5	 -87.5	   7.7	  15.0	  18.6	  16.7	  12.5	  14.5	  17.5	  19.2	  16.5	  22.3	  14.6	   6.9	   5.7	   5.6
 -87.5	 -77.5	   7.7	  15.0	  18.6	  16.7	  12.5	  14.5	  17.5	  19.2	  16.5	  22.3	  14.6	   6.9	   5.7	   5.6
 -77.5	 -67.5	   7.7	  15.0	  18.6	  16.7	  12.5	  14.5	  17.5	  19.2	  16.5	  22.3	  14.6	   6.9	   5.7	   5.6
 -67.5	 -57.5	   7.7	  15.0	  18.6	  16.7	  12.5	  14.5	  17.5	  19.2	  16.5	  22.3	  14.6	   6.9	   5.7	   5.6
 -57.5	 -47.5	   7.7	  15.0	  18.6	  16.7	  12.5	  14.5	  17.5	  19.2	  16.5	  22.3	  14.6	   6.9	   5.7	   5.6
 -47.5	 -37.5	   7.7	  15.0	  18.6	  16.3	  12.3	  14.1	  16.7	  18.8	  16.8	  22.0	  13.8	   6.2	   5.5	   4.9
 -37.5	 -27.5	   7.4	  14.4	  17.6	  14.2	  11.1	  11.7	  12.8	  16.1	  16.3	  19.0	   9.9	   3.3	   3.8	   1.4
 -27.5	 -17.5	   5.6	  11.2	  13.0	   9.4	   7.9	   7.3	   6.7	   9.6	  10.9	  11.0	   3.1	  -1.5	  -1.2	  -4.6
 -17.5	  -7.5	   2.7	   5.4	   5.7	   4.0	   3.6	   2.9	   2.2	   3.1	   2.9	   2.3	  -2.9	  -5.7	  -7.6	  -8.8
  -7.5	  -2.5	   0.2	   0.3	   0.1	  -0.1	  -0.2	  -0.8	  -0.7	  -0.4	  -0.8	  -1.3	  -4.6	  -7.4	  -9.9	 -10.3
  -2.5	   2.5	  -0.8	  -2.3	  -3.0	  -3.0	  -3.1	  -3.8	  -3.4	  -3.0	  -2.6	  -2.0	  -2.3	  -5.0	  -6.7	  -9.3
   2.5	   7.5	  -0.5	  -2.6	  -4.6	  -5.5	  -5.3	  -5.6	  -4.6	  -4.9	  -4.7	  -3.1	  -0.2	  -1.0	  -1.9	  -3.7
   7.5	  17.5	   0.3	  -1.2	  -4.3	  -7.3	  -8.4	  -7.4	  -5.7	  -5.1	  -5.0	  -3.6	  -0.7	   0.3	   0.9	   2.6
  17.5	  27.5	   0.7	   0.4	  -2.4	  -7.6	 -10.6	  -9.4	  -8.2	  -5.0	  -5.1	  -4.1	  -3.1	  -0.2	   1.6	   3.7
  27.5	  37.5	   0.8	   1.2	  -0.8	  -6.5	 -10.4	  -9.4	 -11.3	  -6.9	  -7.6	  -8.2	  -8.3	  -2.4	  -0.2	  -0.0
  37.5	  47.5	   0.9	   1.4	  -0.3	  -5.5	  -9.7	  -7.9	 -13.5	 -10.8	 -11.6	 -13.9	 -13.5	  -6.5	  -3.6	  -4.1
  47.5	  57.5	   0.9	   1.4	  -0.1	  -5.3	  -9.5	  -7.1	 -14.3	 -13.3	 -14.0	 -16.1	 -15.2	  -9.2	  -5.9	  -5.6
  57.5	  67.5	   0.9	   1.5	  -0.1	  -5.2	  -9.5	  -6.9	 -14.5	 -13.9	 -14.7	 -16.0	 -15.3	 -10.1	  -6.7	  -5.7
  67.5	  77.5	   0.9	   1.5	  -0.1	  -5.2	  -9.4	  -6.8	 -14.6	 -14.0	 -14.8	 -16.0	 -15.3	 -10.3	  -6.8	  -5.8
  77.5	  87.5	   0.9	   1.5	  -0.1	  -5.2	  -9.4	  -6.8	 -14.6	 -14.1	 -14.9	 -16.0	 -15.3	 -10.3	  -6.9	  -5.8
  87.5	  97.5	   0.9	   1.5	  -0.1	  -5.2	  -9.4	  -6.8	 -14.6	 -14.1	 -14.9	 -16.0	 -15.3	 -10.3	  -6.9	  -5.8
  97.5	 107.5	   0.9	   1.5	  -0.1	  -5.2	  -9.4	  -6.8	 -14.6	 -14.1	 -14.9	 -16.0	 -15.3	 -10.3	  -6.9	  -5.8
 107.5	 117.5	   0.9	   1.5	  -0.1	  -5.2	  -9.4	  -6.8	 -14.6	 -14.1	 -14.9	 -16.0	 -15.3	 -10.3	  -6.9	  -5.8
 117.5	 127.5	   0.9	   1.5	  -0.1	  -5.2	  -9.4	  -6.8	 -14.6	 -14.1	 -14.9	 -16.0	 -15.3	 -10.3	  -6.9	  -5.8
